{"vocab": {"e</w>": 0, "er": 1, "t</w>": 2, "n</w>": 3, ".</w>": 4, "s</w>": 5, "ch": 6, ",</w>": 7, "th": 8, "in": 9, "er</w>": 10, "d</w>": 11, "en</w>": 12, "an": 13, "en": 14, "ich": 15, "ha": 16, "r</w>": 17, "ie</w>": 18, "es": 19, "ll": 20, "o</w>": 21, "f</w>": 22, "ar": 23, "om": 24, "the</w>": 25, "ou": 26, "ein": 27, "y</w>": 28, "st</w>": 29, "is</w>": 30, "un": 31, "wi": 32, "st": 33, "ei": 34, "as</w>": 35, "of</w>": 36, "!</w>": 37, "I</w>": 38, "ich</w>": 39, "al": 40, "no": 41, "ch</w>": 42, "m</w>": 43, "el": 44, "?</w>": 45, "ing": 46, "au": 47, "en.</w>": 48, "eh": 49, "od": 50, "e,</w>": 51, "or": 52, "he</w>": 53, "u</w>": 54, "et": 55, "e.</w>": 56, "nich": 57, "der</w>": 58, "a</w>": 59, "li": 60, "die</w>": 61, "ea": 62, "Her": 63, "HE": 64, "and</w>": 65, "on</w>": 66, "to</w>": 67, "on": 68, "not</w>": 69, "ll</w>": 70, "ist</w>": 71, "t.</w>": 72, "en,</w>": 73, "that</w>": 74, "Herod": 75, "Ich</w>": 76, "und</w>": 77, "lo": 78, "den</w>": 79, "ri": 80, "ag": 81, "nicht</w>": 82, "ve</w>": 83, "wh": 84, "Salom": 85, "ck": 86, "ih": 87, "da": 88, "t,</w>": 89, "mi": 90, "ro": 91, "sch": 92, "di": 93, "re": 94, "will</w>": 95, "ol": 96, "s.</w>": 97, "ter</w>": 98, "HER": 99, "HERO": 100, "HEROD": 101, "hi": 102, "ver": 103, "the": 104, "ok": 105, "be</w>": 106, "si": 107, "te</w>": 108, "ge": 109, "s,</w>": 110, "eine</w>": 111, "\u00df</w>": 112, "la": 113, "ed</w>": 114, "Th": 115, "von</w>": 116, "th</w>": 117, "ra": 118, "IA": 119, "E</w>": 120, "ut</w>": 121, "ter": 122, "was</w>": 123, "ke</w>": 124, "it</w>": 125, "sp": 126, "du</w>": 127, "have</w>": 128, "einen</w>": 129, "gh": 130, "sa": 131, "Der</w>": 132, "me</w>": 133, "at</w>": 134, "wei": 135, "Prin": 136, "ti": 137, "ss": 138, "d.</w>": 139, "It</w>": 140, "He</w>": 141, "look": 142, "em</w>": 143, "like</w>": 144, "my</w>": 145, "Herodes</w>": 146, "Er</w>": 147, "HEROD</w>": 148, "k</w>": 149, "zu</w>": 150, "ten</w>": 151, "ru": 152, "do": 153, "ph": 154, "aan": 155, "ber</w>": 156, "thou</w>": 157, "Herodias</w>": 158, "be": 159, "de</w>": 160, "Tet": 161, "Tetrar": 162, "so</w>": 163, "le</w>": 164, "N</w>": 165, "who</w>": 166, "Es</w>": 167, "se": 168, "THE</w>": 169, "ni": 170, "Jo": 171, "Jochan": 172, "S</w>": 173, "roph": 174, "ma": 175, "Du</w>": 176, "w</w>": 177, "SA": 178, "des</w>": 179, "wir": 180, "SAL": 181, "SALO": 182, "SALOM": 183, "SALOME</w>": 184, "pp": 185, "gi": 186, "wa": 187, "t?</w>": 188, "HERODIA": 189, "HERODIAS</w>": 190, "Sol": 191, "wor": 192, "h!</w>": 193, "ihn</w>": 194, "with</w>": 195, "auf</w>": 196, "wer": 197, "anz": 198, "da\u00df</w>": 199, "g</w>": 200, "To": 201, "thy</w>": 202, "you</w>": 203, "d,</w>": 204, "for</w>": 205, "ur": 206, "enn</w>": 207, "her</w>": 208, "Er": 209, "f\u00fc": 210, "ann</w>": 211, "mu": 212, "am</w>": 213, "ce</w>": 214, "omm": 215, "b</w>": 216, "der": 217, "me.</w>": 218, "Soldat</w>": 219, "habe</w>": 220, "Ah!</w>": 221, "Salome,</w>": 222, "komm": 223, "SO": 224, "SOL": 225, "SOLD": 226, "SOLDI": 227, "SOLDIE": 228, "SOLDIER": 229, "SOLDIER</w>": 230, "m.</w>": 231, "sind</w>": 232, "zi": 233, "mo": 234, "l</w>": 235, "Prinz": 236, "to": 237, "Sie</w>": 238, "mir</w>": 239, "le": 240, "id</w>": 241, "IAN</w>": 242, "Wh": 243, "na": 244, "Sch": 245, "Die</w>": 246, "n.</w>": 247, "Na": 248, "Princ": 249, "she</w>": 250, "NA": 251, "einer</w>": 252, "ta": 253, "nd</w>": 254, "dem</w>": 255, "\u00f6ni": 256, "her": 257, "ld</w>": 258, "vi": 259, "ir</w>": 260, "Toch": 261, "FI": 262, "Iok": 263, "]</w>": 264, "yri": 265, "Erster</w>": 266, ";</w>": 267, "y.</w>": 268, "FIR": 269, "FIRS": 270, "FIRST": 271, "FIRST</w>": 272, "You</w>": 273, "ever</w>": 274, ".]</w>": 275, "zu": 276, "proph": 277, "but</w>": 278, "daugh": 279, "cht": 280, "Tetrarch": 281, "K\u00f6ni": 282, "lu": 283, "ne</w>": 284, "as": 285, "She</w>": 286, "jun": 287, "Syri": 288, "f\u00fcr</w>": 289, "kann</w>": 290, "bi": 291, "wird</w>": 292, "e?</w>": 293, "tt": 294, "sieh": 295, "op": 296, "ein,</w>": 297, "me,</w>": 298, "up": 299, "In</w>": 300, "wenn</w>": 301, "him</w>": 302, "Au": 303, "hr": 304, "mm": 305, "Sti": 306, "from</w>": 307, "thee</w>": 308, "junge</w>": 309, "su": 310, "th,</w>": 311, "The": 312, "Ju": 313, "sil": 314, "app": 315, "Go": 316, "ab": 317, "They</w>": 318, "shall</w>": 319, "spea": 320, "Syrier</w>": 321, "eu": 322, "Si": 323, "schen</w>": 324, "em": 325, "dst</w>": 326, "Zwei": 327, "l\u00fc": 328, "Proph": 329, "Thou</w>": 330, "l\u00e4": 331, "ff": 332, "for": 333, "e!</w>": 334, "h\u00f6": 335, "deinen</w>": 336, "fu": 337, "PA": 338, "SE": 339, "D</w>": 340, "they</w>": 341, "rib": 342, "ci": 343, "sh": 344, "come</w>": 345, "nen</w>": 346, "im</w>": 347, "Was</w>": 348, "Zweiter</w>": 349, "Sa": 350, "bla": 351, "oh": 352, "\u00e4n": 353, "OU": 354, "ow</w>": 355, "dea": 356, "SEC": 357, "SECO": 358, "SECON": 359, "SECOND</w>": 360, "But</w>": 361, "IO": 362, "IOK": 363, "IOKA": 364, "IOKANA": 365, "IOKANAA": 366, "IOKANAAN</w>": 367, "ould</w>": 368, "Prinzessin": 369, "lie": 370, "hei": 371, "blo": 372, "s!</w>": 373, "YOU": 374, "YOUN": 375, "YOUNG": 376, "YOUNG</w>": 377, "SY": 378, "SYR": 379, "SYRIAN</w>": 380, "may</w>": 381, "give</w>": 382, "Ja": 383, "einem</w>": 384, "appa": 385, "appado": 386, "Und</w>": 387, "ihm</w>": 388, "af": 389, "k\u00fc": 390, "fi": 391, "terrib": 392, "Ca": 393, "aus</w>": 394, "bt</w>": 395, "Aber</w>": 396, "men</w>": 397, "we": 398, "ki": 399}, "merges": [["e", "</w>"], ["e", "r"], ["t", "</w>"], ["n", "</w>"], [".", "</w>"], ["s", "</w>"], ["c", "h"], [",", "</w>"], ["t", "h"], ["i", "n"], ["er", "</w>"], ["d", "</w>"], ["e", "n</w>"], ["a", "n"], ["e", "n"], ["i", "ch"], ["h", "a"], ["r", "</w>"], ["i", "e</w>"], ["e", "s"], ["l", "l"], ["o", "</w>"], ["f", "</w>"], ["a", "r"], ["o", "m"], ["th", "e</w>"], ["o", "u"], ["e", "in"], ["y", "</w>"], ["s", "t</w>"], ["i", "s</w>"], ["u", "n"], ["w", "i"], ["s", "t"], ["e", "i"], ["a", "s</w>"], ["o", "f</w>"], ["!", "</w>"], ["I", "</w>"], ["ich", "</w>"], ["a", "l"], ["n", "o"], ["ch", "</w>"], ["m", "</w>"], ["e", "l"], ["?", "</w>"], ["in", "g"], ["a", "u"], ["en", ".</w>"], ["e", "h"], ["o", "d"], ["e", ",</w>"], ["o", "r"], ["h", "e</w>"], ["u", "</w>"], ["e", "t"], ["e", ".</w>"], ["n", "ich"], ["d", "er</w>"], ["a", "</w>"], ["l", "i"], ["d", "ie</w>"], ["e", "a"], ["H", "er"], ["H", "E"], ["an", "d</w>"], ["o", "n</w>"], ["t", "o</w>"], ["o", "n"], ["no", "t</w>"], ["ll", "</w>"], ["i", "st</w>"], ["t", ".</w>"], ["en", ",</w>"], ["tha", "t</w>"], ["Her", "od"], ["I", "ch</w>"], ["un", "d</w>"], ["l", "o"], ["d", "en</w>"], ["r", "i"], ["a", "g"], ["nich", "t</w>"], ["v", "e</w>"], ["w", "h"], ["S", "alom"], ["c", "k"], ["i", "h"], ["d", "a"], ["t", ",</w>"], ["m", "i"], ["r", "o"], ["s", "ch"], ["d", "i"], ["r", "e"], ["wi", "ll</w>"], ["o", "l"], ["s", ".</w>"], ["t", "er</w>"], ["HE", "R"], ["HER", "O"], ["HERO", "D"], ["h", "i"], ["v", "er"], ["th", "e"], ["o", "k"], ["b", "e</w>"], ["s", "i"], ["t", "e</w>"], ["g", "e"], ["s", ",</w>"], ["ein", "e</w>"], ["\u00df", "</w>"], ["l", "a"], ["e", "d</w>"], ["T", "h"], ["v", "on</w>"], ["th", "</w>"], ["r", "a"], ["I", "A"], ["E", "</w>"], ["u", "t</w>"], ["t", "er"], ["w", "as</w>"], ["k", "e</w>"], ["i", "t</w>"], ["s", "p"], ["d", "u</w>"], ["ha", "ve</w>"], ["ein", "en</w>"], ["g", "h"], ["s", "a"], ["D", "er</w>"], ["m", "e</w>"], ["a", "t</w>"], ["w", "ei"], ["P", "rin"], ["t", "i"], ["s", "s"], ["d", ".</w>"], ["I", "t</w>"], ["H", "e</w>"], ["lo", "ok"], ["e", "m</w>"], ["li", "ke</w>"], ["m", "y</w>"], ["Herod", "es</w>"], ["E", "r</w>"], ["HEROD", "</w>"], ["k", "</w>"], ["z", "u</w>"], ["t", "en</w>"], ["r", "u"], ["d", "o"], ["p", "h"], ["a", "an"], ["b", "er</w>"], ["th", "ou</w>"], ["Herodi", "as</w>"], ["b", "e"], ["d", "e</w>"], ["T", "et"], ["Tet", "rar"], ["s", "o</w>"], ["l", "e</w>"], ["N", "</w>"], ["wh", "o</w>"], ["E", "s</w>"], ["s", "e"], ["T", "HE</w>"], ["n", "i"], ["J", "o"], ["Jo", "chan"], ["S", "</w>"], ["ro", "ph"], ["m", "a"], ["D", "u</w>"], ["w", "</w>"], ["S", "A"], ["d", "es</w>"], ["wi", "r"], ["SA", "L"], ["SAL", "O"], ["SALO", "M"], ["SALOM", "E</w>"], ["p", "p"], ["g", "i"], ["w", "a"], ["t", "?</w>"], ["HEROD", "IA"], ["HERODIA", "S</w>"], ["S", "ol"], ["w", "or"], ["h", "!</w>"], ["ih", "n</w>"], ["wi", "th</w>"], ["au", "f</w>"], ["w", "er"], ["an", "z"], ["da", "\u00df</w>"], ["g", "</w>"], ["T", "o"], ["th", "y</w>"], ["y", "ou</w>"], ["d", ",</w>"], ["f", "or</w>"], ["u", "r"], ["en", "n</w>"], ["h", "er</w>"], ["E", "r"], ["f", "\u00fc"], ["an", "n</w>"], ["m", "u"], ["a", "m</w>"], ["c", "e</w>"], ["om", "m"], ["b", "</w>"], ["d", "er"], ["m", "e.</w>"], ["Sol", "dat</w>"], ["ha", "be</w>"], ["A", "h!</w>"], ["Salom", "e,</w>"], ["k", "omm"], ["S", "O"], ["SO", "L"], ["SOL", "D"], ["SOLD", "I"], ["SOLDI", "E"], ["SOLDIE", "R"], ["SOLDIER", "</w>"], ["m", ".</w>"], ["sin", "d</w>"], ["z", "i"], ["m", "o"], ["l", "</w>"], ["Prin", "z"], ["t", "o"], ["S", "ie</w>"], ["mi", "r</w>"], ["l", "e"], ["i", "d</w>"], ["IA", "N</w>"], ["W", "h"], ["n", "a"], ["S", "ch"], ["D", "ie</w>"], ["n", ".</w>"], ["N", "a"], ["Prin", "c"], ["s", "he</w>"], ["N", "A"], ["ein", "er</w>"], ["t", "a"], ["n", "d</w>"], ["d", "em</w>"], ["\u00f6", "ni"], ["h", "er"], ["l", "d</w>"], ["v", "i"], ["i", "r</w>"], ["To", "ch"], ["F", "I"], ["I", "ok"], ["]", "</w>"], ["y", "ri"], ["Er", "ster</w>"], [";", "</w>"], ["y", ".</w>"], ["FI", "R"], ["FIR", "S"], ["FIRS", "T"], ["FIRST", "</w>"], ["Y", "ou</w>"], ["e", "ver</w>"], [".", "]</w>"], ["z", "u"], ["p", "roph"], ["b", "ut</w>"], ["dau", "gh"], ["ch", "t"], ["Tetrar", "ch"], ["K", "\u00f6ni"], ["l", "u"], ["n", "e</w>"], ["a", "s"], ["S", "he</w>"], ["j", "un"], ["S", "yri"], ["f\u00fc", "r</w>"], ["k", "ann</w>"], ["b", "i"], ["wir", "d</w>"], ["e", "?</w>"], ["t", "t"], ["si", "eh"], ["o", "p"], ["ein", ",</w>"], ["m", "e,</w>"], ["u", "p"], ["I", "n</w>"], ["w", "enn</w>"], ["hi", "m</w>"], ["A", "u"], ["h", "r"], ["m", "m"], ["S", "ti"], ["f", "rom</w>"], ["the", "e</w>"], ["jun", "ge</w>"], ["s", "u"], ["th", ",</w>"], ["Th", "e"], ["J", "u"], ["si", "l"], ["a", "pp"], ["G", "o"], ["a", "b"], ["The", "y</w>"], ["s", "hall</w>"], ["sp", "ea"], ["Syri", "er</w>"], ["e", "u"], ["S", "i"], ["sch", "en</w>"], ["e", "m"], ["d", "st</w>"], ["Z", "wei"], ["l", "\u00fc"], ["P", "roph"], ["Th", "ou</w>"], ["l", "\u00e4"], ["f", "f"], ["f", "or"], ["e", "!</w>"], ["h", "\u00f6"], ["d", "einen</w>"], ["f", "u"], ["P", "A"], ["S", "E"], ["D", "</w>"], ["the", "y</w>"], ["ri", "b"], ["c", "i"], ["s", "h"], ["c", "ome</w>"], ["n", "en</w>"], ["i", "m</w>"], ["W", "as</w>"], ["Zwei", "ter</w>"], ["S", "a"], ["b", "la"], ["o", "h"], ["\u00e4", "n"], ["O", "U"], ["o", "w</w>"], ["d", "ea"], ["SE", "C"], ["SEC", "O"], ["SECO", "N"], ["SECON", "D</w>"], ["B", "ut</w>"], ["I", "O"], ["IO", "K"], ["IOK", "A"], ["IOKA", "NA"], ["IOKANA", "A"], ["IOKANAA", "N</w>"], ["ou", "ld</w>"], ["Prinz", "essin"], ["li", "e"], ["h", "ei"], ["b", "lo"], ["s", "!</w>"], ["Y", "OU"], ["YOU", "N"], ["YOUN", "G"], ["YOUNG", "</w>"], ["S", "Y"], ["SY", "R"], ["SYR", "IAN</w>"], ["ma", "y</w>"], ["gi", "ve</w>"], ["J", "a"], ["ein", "em</w>"], ["app", "a"], ["appa", "do"], ["U", "nd</w>"], ["ih", "m</w>"], ["a", "f"], ["k", "\u00fc"], ["f", "i"], ["ter", "rib"], ["C", "a"], ["au", "s</w>"], ["b", "t</w>"], ["A", "ber</w>"], ["m", "en</w>"], ["w", "e"], ["k", "i"]]}